TRT-7202-EntropyCalibration2
input: 3c010a14
28: 3aac5e4c
29: 3a764ba0
30: 3b05cfba
31: 3a8e449f
32: 3b06b0e1
33: 3a8ba89e
34: 3b189df9
35: 3a93ed8e
36: 3b0f38ec
37: 3a91850e
38: 3b0655f0
39: 3a6b5757
40: 3ada9fcc
41: 3a72543e
42: 3ad224a6
43: 3a53df46
44: 3ab1e900
45: 3a4ea752
46: 3aabc239
47: 3a618c78
48: 3aebfaab
49: 3a824e15
50: 3aa45698
51: 3983787a
52: 3c02b113
53: 3b6ab401
output_x2: 3c28f959
55: 39ea2dc8
56: 3999f4da
57: 3a17394e
58: 3977cdce
59: 3a190bde
60: 399e354c
61: 3a124383
62: 399df801
63: 3a09d32c
64: 39899591
65: 3a08ebf4
66: 3987511a
67: 39f83832
68: 39815bbf
69: 3a1eb529
70: 398d9e2b
71: 3a03f2e0
72: 3960cb42
73: 3a415ced
74: 3991e381
75: 3aa95d59
76: 3a07a67e
77: 3c1dd6a0
78: 3b074aec
output_x4: 3c33dd35
